#ifndef SINE_WAVE_H
#define SINE_WAVE_H


unsigned int sine_wave_len = 2896;
unsigned char sine_wave[] = {
 0x20, 0x00, 0x00, 0x00, 0x54, 0x46, 0x4c, 0x33, 0x00, 0x00, 0x00, 0x00,
  0x00, 0x00, 0x12, 0x00, 0x1c, 0x00, 0x04, 0x00, 0x08, 0x00, 0x0c, 0x00,
  0x10, 0x00, 0x14, 0x00, 0x00, 0x00, 0x18, 0x00, 0x12, 0x00, 0x00, 0x00,
  0x03, 0x00, 0x00, 0x00, 0x08, 0x0b, 0x00, 0x00, 0x68, 0x06, 0x00, 0x00,
  0x50, 0x06, 0x00, 0x00, 0x3c, 0x00, 0x00, 0x00, 0x04, 0x00, 0x00, 0x00,
  0x01, 0x00, 0x00, 0x00, 0x0c, 0x00, 0x00, 0x00, 0x08, 0x00, 0x0c, 0x00,
  0x04, 0x00, 0x08, 0x00, 0x08, 0x00, 0x00, 0x00, 0x08, 0x00, 0x00, 0x00,
  0x0b, 0x00, 0x00, 0x00, 0x13, 0x00, 0x00, 0x00, 0x6d, 0x69, 0x6e, 0x5f,
  0x72, 0x75, 0x6e, 0x74, 0x69, 0x6d, 0x65, 0x5f, 0x76, 0x65, 0x72, 0x73,
  0x69, 0x6f, 0x6e, 0x00, 0x0c, 0x00, 0x00, 0x00, 0x08, 0x06, 0x00, 0x00,
  0xf4, 0x05, 0x00, 0x00, 0x98, 0x05, 0x00, 0x00, 0x34, 0x05, 0x00, 0x00,
  0x20, 0x05, 0x00, 0x00, 0xcc, 0x04, 0x00, 0x00, 0xb8, 0x00, 0x00, 0x00,
  0x64, 0x00, 0x00, 0x00, 0x58, 0x00, 0x00, 0x00, 0x44, 0x00, 0x00, 0x00,
  0x30, 0x00, 0x00, 0x00, 0x04, 0x00, 0x00, 0x00, 0x96, 0xfa, 0xff, 0xff,
  0x04, 0x00, 0x00, 0x00, 0x10, 0x00, 0x00, 0x00, 0x31, 0x2e, 0x35, 0x2e,
  0x30, 0x00, 0x00, 0x00, 0x00, 0x00, 0x00, 0x00, 0x00, 0x00, 0x00, 0x00,
  0x00, 0x00, 0x00, 0x00, 0x00, 0x00, 0x00, 0x00, 0x00, 0x00, 0x00, 0x00,
  0xc0, 0xf5, 0xff, 0xff, 0x00, 0x00, 0x00, 0x00, 0x00, 0x00, 0x00, 0x00,
  0x00, 0x00, 0x00, 0x00, 0xd0, 0xf5, 0xff, 0xff, 0x00, 0x00, 0x00, 0x00,
  0x00, 0x00, 0x00, 0x00, 0x00, 0x00, 0x00, 0x00, 0xe0, 0xf5, 0xff, 0xff,
  0x00, 0x00, 0x00, 0x00, 0xe6, 0xfa, 0xff, 0xff, 0x04, 0x00, 0x00, 0x00,
  0x40, 0x00, 0x00, 0x00, 0x44, 0x79, 0x3a, 0xbe, 0xca, 0xf8, 0xcc, 0xba,
  0x66, 0xf5, 0xae, 0x3f, 0xae, 0x33, 0xcf, 0x3f, 0x0b, 0x23, 0xb0, 0x3f,
  0xa6, 0x29, 0xc4, 0x3e, 0xbe, 0x50, 0x75, 0x3e, 0xcb, 0x23, 0x6f, 0xbf,
  0x66, 0x90, 0x07, 0xbf, 0xc1, 0x3e, 0x61, 0xbf, 0xdb, 0x8b, 0xb2, 0x3e,
  0xc6, 0xbb, 0xe1, 0xbe, 0x98, 0xbb, 0xb1, 0xbd, 0x38, 0x90, 0x86, 0x3e,
  0x8d, 0xcc, 0x16, 0x3f, 0x73, 0x18, 0xa6, 0xbe, 0x00, 0x00, 0x00, 0x00,
  0x36, 0xfb, 0xff, 0xff, 0x04, 0x00, 0x00, 0x00, 0x00, 0x04, 0x00, 0x00,
  0x5e, 0xce, 0x9f, 0x3e, 0x34, 0xf1, 0xa8, 0x3d, 0x60, 0xfd, 0xb0, 0xbc,
  0xb3, 0x8e, 0xea, 0xbd, 0xa9, 0x6a, 0x0a, 0xbf, 0xc5, 0xc5, 0x8f, 0x3e,
  0xcd, 0xc2, 0x45, 0x3e, 0x48, 0xb0, 0x87, 0xbe, 0xd4, 0x4e, 0x1f, 0x3e,
  0x87, 0xfe, 0xb8, 0x3e, 0x52, 0x7f, 0x17, 0xbe, 0xd7, 0x14, 0x9a, 0x3e,
  0x51, 0xa6, 0xab, 0x3e, 0xf3, 0xf5, 0xb0, 0xbe, 0x2c, 0x71, 0xdb, 0x3d,
  0x8d, 0x16, 0xdb, 0xbe, 0x21, 0x79, 0x8f, 0x3d, 0xdc, 0x35, 0x9c, 0xbe,
  0x44, 0xa4, 0xc4, 0x3d, 0x15, 0xc0, 0x39, 0x3d, 0x3b, 0x0e, 0xc2, 0xbe,
  0xd4, 0x31, 0x50, 0xbe, 0xa3, 0x3d, 0x87, 0xbc, 0x79, 0xfd, 0x04, 0xbc,
  0xc7, 0x63, 0x25, 0xbe, 0x32, 0xf2, 0x7b, 0xbe, 0x32, 0x97, 0x31, 0xbe,
  0x6d, 0xbe, 0xa8, 0x3b, 0x80, 0x65, 0x38, 0xbe, 0xac, 0x87, 0x9f, 0xbe,
  0x7f, 0xfc, 0xbf, 0xbe, 0x68, 0x5b, 0x7a, 0x3d, 0x4f, 0xbc, 0x2b, 0xbf,
  0x44, 0x4c, 0x8b, 0xbd, 0x41, 0xa5, 0xc6, 0x3e, 0x41, 0x63, 0xc0, 0x3e,
  0xe9, 0x7b, 0x11, 0xbe, 0xac, 0xe7, 0xa3, 0xbe, 0x5b, 0x5d, 0xe2, 0xbe,
  0x01, 0x3b, 0xe6, 0x3e, 0xb1, 0xd7, 0xc2, 0xbf, 0x22, 0x99, 0x10, 0x3e,
  0xbc, 0x0d, 0x6c, 0xbe, 0xfb, 0xfa, 0x30, 0x3e, 0x80, 0x91, 0x78, 0x3d,
  0x32, 0x53, 0x59, 0x3e, 0x36, 0x96, 0x42, 0x3e, 0xfb, 0x0b, 0x83, 0x3e,
  0x9c, 0xc7, 0xd9, 0x3d, 0xcd, 0x57, 0xc1, 0x3e, 0x7f, 0xac, 0x3c, 0xbe,
  0x0f, 0xe9, 0x33, 0xbf, 0x04, 0x71, 0x4c, 0xbd, 0xd8, 0x68, 0x4d, 0xbd,
  0x57, 0x97, 0x00, 0x3f, 0xeb, 0xd9, 0x17, 0x3e, 0xa9, 0x16, 0x0f, 0x3f,
  0x35, 0xbc, 0x2e, 0xbe, 0xe4, 0xef, 0xa2, 0xbd, 0xa2, 0xc3, 0x4d, 0xbd,
  0x0a, 0xb3, 0x76, 0x3e, 0x80, 0x2e, 0x1b, 0xbb, 0x79, 0xbe, 0xc7, 0x3e,
  0x38, 0x08, 0x38, 0xbd, 0xd1, 0x05, 0x43, 0x3e, 0xb1, 0x76, 0xd0, 0x3e,
  0x13, 0x70, 0x5f, 0xbd, 0x49, 0x7c, 0xcb, 0xbe, 0x4f, 0xfc, 0x7d, 0xbd,
  0xbb, 0x41, 0x93, 0x3e, 0x14, 0x82, 0x8b, 0x3e, 0x26, 0xfa, 0xd2, 0xbd,
  0xac, 0x82, 0x35, 0x3e, 0x34, 0xc8, 0x81, 0xbc, 0x20, 0xe2, 0xc2, 0xbe,
  0xbf, 0x03, 0x2e, 0x3e, 0xe0, 0x40, 0x69, 0xbd, 0x02, 0xc8, 0x70, 0xbe,
  0xe6, 0x37, 0x3c, 0x3e, 0x52, 0x06, 0x6f, 0x3e, 0x85, 0xc9, 0x27, 0xbd,
  0x3c, 0x60, 0xd0, 0xbd, 0xb5, 0xbc, 0xe0, 0xbe, 0x3b, 0x45, 0x89, 0xbe,
  0x02, 0xa9, 0x1c, 0x3e, 0xbf, 0x2f, 0xa4, 0x3e, 0xc8, 0x40, 0xc6, 0x3e,
  0x1f, 0xad, 0x38, 0x3e, 0x34, 0xfb, 0xbd, 0xbe, 0x4d, 0x2f, 0x6c, 0xbe,
  0xfc, 0x1e, 0x9d, 0xbd, 0x61, 0x8e, 0x35, 0x3e, 0xfd, 0x14, 0x9e, 0x3e,
  0xf4, 0x85, 0x98, 0x3d, 0x74, 0x0e, 0x9e, 0x3d, 0x2a, 0xe2, 0x03, 0xbe,
  0xf2, 0x4d, 0x9f, 0xbe, 0x00, 0xab, 0x2a, 0x3b, 0x7d, 0xf5, 0x6e, 0x3e,
  0xd7, 0x12, 0xad, 0xbe, 0x88, 0x96, 0xce, 0xbe, 0xa3, 0xc7, 0xb1, 0xbe,
  0x3b, 0x73, 0x39, 0xbe, 0x3f, 0x55, 0xc0, 0x3e, 0xa9, 0x7e, 0xd8, 0x3e,
  0x6f, 0x32, 0xbc, 0xbe, 0x30, 0x90, 0x37, 0xbe, 0xac, 0x94, 0x94, 0x3e,
  0x4a, 0xa6, 0x07, 0xbe, 0x98, 0x10, 0x0c, 0xbd, 0xf6, 0xc1, 0x27, 0x3e,
  0xac, 0x88, 0xb6, 0xbd, 0x20, 0x82, 0x20, 0x3d, 0x32, 0x16, 0x6a, 0xbe,
  0xbf, 0xd0, 0xc4, 0xbe, 0x6b, 0xdf, 0xa5, 0x3e, 0x5e, 0x8d, 0x8a, 0x3e,
  0x88, 0x22, 0x99, 0xbd, 0xd0, 0x90, 0x07, 0xbf, 0xb9, 0x82, 0x1f, 0xbf,
  0x7e, 0x45, 0xb9, 0xbe, 0xb2, 0x97, 0x1e, 0xbf, 0xf0, 0xf1, 0x97, 0x3c,
  0x2e, 0xb0, 0x30, 0xbf, 0x76, 0x08, 0x8d, 0xbe, 0xc0, 0x5c, 0x9f, 0xbb,
  0xf7, 0x02, 0xc7, 0x3e, 0xd8, 0x89, 0x23, 0xbd, 0x96, 0x9a, 0x1c, 0x3e,
  0x48, 0x28, 0x7e, 0xbd, 0x22, 0xf4, 0xad, 0xbe, 0xe8, 0x76, 0xc3, 0xbe,
  0xae, 0x13, 0x18, 0x3e, 0xbc, 0xcd, 0xb0, 0xbd, 0x72, 0x2c, 0x40, 0x3e,
  0x0a, 0xbc, 0xd0, 0xbe, 0xfa, 0x6e, 0x59, 0x3e, 0x28, 0xf9, 0x4f, 0xbe,
  0x2c, 0x37, 0xf4, 0x3d, 0x52, 0xf3, 0x62, 0x3e, 0xe5, 0xee, 0xa7, 0xbe,
  0x03, 0x03, 0xc7, 0x3e, 0x3c, 0x6d, 0xaa, 0x3d, 0x39, 0x9d, 0xad, 0xbe,
  0x57, 0xcd, 0xb1, 0xbe, 0x90, 0x56, 0x80, 0x3d, 0xd2, 0x73, 0x8d, 0xbe,
  0xfa, 0x84, 0xf0, 0x3e, 0xc1, 0xa2, 0xfe, 0x3e, 0xb2, 0x36, 0x6b, 0x3e,
  0x3a, 0xab, 0xff, 0xbe, 0xf6, 0xf6, 0xdb, 0xbe, 0x10, 0x22, 0x07, 0xbe,
  0x00, 0xd2, 0xb0, 0xbe, 0x43, 0x13, 0xaf, 0x3e, 0x79, 0xd8, 0x0f, 0xbe,
  0x11, 0x84, 0xcc, 0xbe, 0x43, 0x2f, 0x84, 0x3e, 0xda, 0x82, 0x71, 0xbe,
  0x84, 0x22, 0xaf, 0xbd, 0xdf, 0xe4, 0x7b, 0xbe, 0xfe, 0x2a, 0x4c, 0x3e,
  0x5e, 0xde, 0x95, 0xbe, 0x26, 0x2d, 0x6d, 0x3e, 0x44, 0x86, 0xd8, 0xbe,
  0x0b, 0xf7, 0x80, 0x3e, 0x25, 0xee, 0x7c, 0xbe, 0x3b, 0xc8, 0xe3, 0xbe,
  0x20, 0xaf, 0x66, 0xbc, 0x64, 0x97, 0xab, 0xbe, 0x2f, 0x6c, 0x81, 0xbe,
  0x02, 0x9d, 0x38, 0xbe, 0xa8, 0x96, 0x25, 0xbd, 0x21, 0x79, 0xb4, 0x3e,
  0x94, 0xea, 0xcd, 0x3d, 0x1b, 0x01, 0x8e, 0x3e, 0xa6, 0xf7, 0x85, 0x3e,
  0x22, 0x3e, 0x7c, 0x3e, 0x40, 0x20, 0xf5, 0x3d, 0x2e, 0x88, 0x56, 0xbe,
  0xf4, 0xaa, 0x99, 0xbe, 0x33, 0xb9, 0xcb, 0x3e, 0x32, 0xff, 0x8d, 0x3d,
  0xa7, 0x55, 0xc7, 0xbc, 0xb3, 0x08, 0xb4, 0x3d, 0xd7, 0xe8, 0x94, 0x3e,
  0xf8, 0x16, 0x46, 0x3d, 0xe4, 0x64, 0x87, 0x3e, 0xa2, 0xf3, 0x0f, 0x3e,
  0x0d, 0xbf, 0xaf, 0x3e, 0x7c, 0xc1, 0x22, 0xbe, 0x10, 0xe9, 0x5b, 0x3d,
  0x59, 0x02, 0x88, 0xbe, 0x12, 0x5e, 0x20, 0x3e, 0x1d, 0x53, 0xca, 0x3e,
  0x64, 0x8f, 0xd9, 0xbe, 0x80, 0xc9, 0xb5, 0xbd, 0xd0, 0x98, 0x9b, 0x3c,
  0x1b, 0x43, 0x94, 0x3e, 0x88, 0xe5, 0x90, 0xbe, 0x3e, 0x5c, 0x08, 0x3e,
  0x37, 0x8a, 0x50, 0xbe, 0x74, 0xad, 0xd5, 0x3d, 0xb2, 0x84, 0x85, 0xbe,
  0xaa, 0x16, 0x0e, 0xbe, 0x88, 0x68, 0x5f, 0xbe, 0xf6, 0x74, 0x2d, 0x3e,
  0xb6, 0x29, 0x9d, 0xbe, 0xd2, 0x8a, 0xd1, 0xbe, 0x20, 0xf0, 0x83, 0xbe,
  0xef, 0x37, 0x57, 0x3e, 0x21, 0xb1, 0x40, 0xbd, 0x8d, 0x3e, 0x8a, 0x3e,
  0x04, 0x87, 0xe2, 0xbd, 0x1f, 0xac, 0xca, 0x3e, 0xe9, 0x4e, 0x81, 0xbd,
  0xcd, 0x01, 0xd0, 0xbd, 0x05, 0xb3, 0x9d, 0xbe, 0x00, 0xa5, 0xc5, 0xba,
  0x00, 0x62, 0xad, 0x3e, 0x55, 0x39, 0xa8, 0xbe, 0x13, 0x16, 0xb4, 0x3e,
  0xe0, 0x4e, 0x46, 0xbc, 0xf9, 0x14, 0xa3, 0xbe, 0x25, 0xe1, 0xa7, 0xbe,
  0xc4, 0x59, 0xee, 0xbd, 0x73, 0x2b, 0x18, 0xbd, 0x81, 0x80, 0xf4, 0xbe,
  0x9d, 0xe8, 0x8b, 0xbe, 0x9c, 0x7a, 0xb4, 0xbd, 0x97, 0x7a, 0x87, 0x3e,
  0xb4, 0x35, 0xae, 0x3e, 0x22, 0xee, 0x5d, 0xbe, 0xe8, 0x1e, 0xd1, 0x3c,
  0x67, 0xbe, 0xb3, 0x3e, 0x21, 0xc4, 0x3b, 0xbe, 0x00, 0x0e, 0x66, 0xbc,
  0x18, 0x4e, 0x18, 0x3d, 0x73, 0x0e, 0xab, 0x3e, 0x1e, 0xb6, 0x08, 0x3e,
  0x9b, 0x5e, 0xb2, 0x3e, 0xf0, 0xd9, 0xd4, 0xbd, 0x1b, 0xd2, 0x3c, 0xbe,
  0x92, 0x88, 0xa1, 0xbd, 0x28, 0xcc, 0x37, 0x3d, 0xca, 0x70, 0x48, 0x3e,
  0xee, 0xd2, 0x4a, 0x3e, 0x55, 0x80, 0x8c, 0x3e, 0xee, 0x54, 0x35, 0xbe,
  0x55, 0x66, 0x26, 0xbe, 0x38, 0xef, 0x72, 0x3d, 0x16, 0xfa, 0x0f, 0xbe,
  0xa7, 0xf2, 0x67, 0xbe, 0x5f, 0x9a, 0xd2, 0x3e, 0x0b, 0xcf, 0x3f, 0xbe,
  0xe6, 0x93, 0x0d, 0x3e, 0x00, 0x00, 0x00, 0x00, 0x46, 0xff, 0xff, 0xff,
  0x04, 0x00, 0x00, 0x00, 0x40, 0x00, 0x00, 0x00, 0x78, 0xa4, 0xac, 0x3e,
  0x9a, 0xeb, 0x11, 0xbf, 0x17, 0x8e, 0x2d, 0x3d, 0x49, 0x27, 0x2f, 0x3d,
  0x1b, 0xc8, 0x88, 0xbd, 0xf7, 0x45, 0x06, 0xbf, 0x4d, 0x88, 0x27, 0x3f,
  0xdf, 0x45, 0x75, 0x3e, 0xbc, 0x37, 0x19, 0x3e, 0xc0, 0xa3, 0xb3, 0x3e,
  0xc0, 0x63, 0x33, 0xbc, 0xfc, 0xc6, 0x64, 0x3b, 0x68, 0x71, 0x0b, 0xbf,
  0x03, 0x96, 0x87, 0xbe, 0x26, 0x1a, 0x10, 0xbe, 0xfc, 0xfb, 0x78, 0xbe,
  0x00, 0x00, 0x00, 0x00, 0x96, 0xff, 0xff, 0xff, 0x04, 0x00, 0x00, 0x00,
  0x04, 0x00, 0x00, 0x00, 0x1d, 0xab, 0x8e, 0xbe, 0xa6, 0xff, 0xff, 0xff,
  0x04, 0x00, 0x00, 0x00, 0x40, 0x00, 0x00, 0x00, 0x9d, 0xcd, 0x0b, 0xbe,
  0x20, 0xd5, 0xd8, 0xbc, 0x1e, 0xb3, 0x0a, 0x3f, 0x2b, 0xb2, 0xeb, 0xbe,
  0xa1, 0xeb, 0xa9, 0xbe, 0xc9, 0x51, 0x76, 0xbe, 0x2c, 0xfb, 0x33, 0xba,
  0xb1, 0xf4, 0x3a, 0x3e, 0x00, 0x00, 0x00, 0x00, 0xfd, 0xf9, 0xb1, 0x3e,
  0x56, 0xc3, 0xd2, 0xbd, 0x38, 0x9c, 0xb2, 0xbd, 0x00, 0x00, 0x00, 0x00,
  0x12, 0x8f, 0x22, 0xbe, 0xfc, 0xd5, 0x4e, 0xbe, 0x96, 0x38, 0x5c, 0xbb,
  0x00, 0x00, 0x00, 0x00, 0x00, 0x00, 0x00, 0x00, 0x00, 0x00, 0x00, 0x00,
  0x00, 0x00, 0x06, 0x00, 0x08, 0x00, 0x04, 0x00, 0x06, 0x00, 0x00, 0x00,
  0x04, 0x00, 0x00, 0x00, 0x40, 0x00, 0x00, 0x00, 0x9c, 0x13, 0xbf, 0xbe,
  0x00, 0x00, 0x00, 0x00, 0xb1, 0xb8, 0x43, 0x3e, 0x93, 0xf0, 0x69, 0x3f,
  0x53, 0x05, 0x20, 0x3d, 0x00, 0x00, 0x00, 0x00, 0x3f, 0xcc, 0x59, 0xbf,
  0x37, 0x5c, 0x25, 0xbc, 0x75, 0x72, 0xbf, 0xbe, 0x10, 0xc6, 0x9b, 0x3d,
  0x00, 0x00, 0x00, 0x00, 0x2c, 0x9b, 0xba, 0xbc, 0x00, 0x00, 0x00, 0x00,
  0x00, 0x00, 0x00, 0x00, 0x00, 0x00, 0x00, 0x00, 0x00, 0x00, 0x00, 0x00,
  0x00, 0x00, 0x00, 0x00, 0x00, 0x00, 0x00, 0x00, 0x00, 0x00, 0x00, 0x00,
  0x60, 0xfb, 0xff, 0xff, 0x00, 0x00, 0x00, 0x00, 0x00, 0x00, 0x00, 0x00,
  0x00, 0x00, 0x00, 0x00, 0x70, 0xfb, 0xff, 0xff, 0x0f, 0x00, 0x00, 0x00,
  0x4d, 0x4c, 0x49, 0x52, 0x20, 0x43, 0x6f, 0x6e, 0x76, 0x65, 0x72, 0x74,
  0x65, 0x64, 0x2e, 0x00, 0x01, 0x00, 0x00, 0x00, 0x14, 0x00, 0x00, 0x00,
  0x00, 0x00, 0x0e, 0x00, 0x18, 0x00, 0x04, 0x00, 0x08, 0x00, 0x0c, 0x00,
  0x10, 0x00, 0x14, 0x00, 0x0e, 0x00, 0x00, 0x00, 0x00, 0x01, 0x00, 0x00,
  0xf4, 0x00, 0x00, 0x00, 0xe8, 0x00, 0x00, 0x00, 0x14, 0x00, 0x00, 0x00,
  0x04, 0x00, 0x00, 0x00, 0x04, 0x00, 0x00, 0x00, 0x6d, 0x61, 0x69, 0x6e,
  0x00, 0x00, 0x00, 0x00, 0x03, 0x00, 0x00, 0x00, 0x90, 0x00, 0x00, 0x00,
  0x48, 0x00, 0x00, 0x00, 0x04, 0x00, 0x00, 0x00, 0xce, 0xff, 0xff, 0xff,
  0x00, 0x00, 0x00, 0x08, 0x18, 0x00, 0x00, 0x00, 0x0c, 0x00, 0x00, 0x00,
  0x04, 0x00, 0x00, 0x00, 0xe8, 0xfb, 0xff, 0xff, 0x01, 0x00, 0x00, 0x00,
  0x09, 0x00, 0x00, 0x00, 0x03, 0x00, 0x00, 0x00, 0x08, 0x00, 0x00, 0x00,
  0x06, 0x00, 0x00, 0x00, 0x03, 0x00, 0x00, 0x00, 0x00, 0x00, 0x0e, 0x00,
  0x14, 0x00, 0x00, 0x00, 0x08, 0x00, 0x0c, 0x00, 0x07, 0x00, 0x10, 0x00,
  0x0e, 0x00, 0x00, 0x00, 0x00, 0x00, 0x00, 0x08, 0x1c, 0x00, 0x00, 0x00,
  0x10, 0x00, 0x00, 0x00, 0x04, 0x00, 0x00, 0x00, 0xba, 0xff, 0xff, 0xff,
  0x00, 0x00, 0x00, 0x01, 0x01, 0x00, 0x00, 0x00, 0x08, 0x00, 0x00, 0x00,
  0x03, 0x00, 0x00, 0x00, 0x07, 0x00, 0x00, 0x00, 0x05, 0x00, 0x00, 0x00,
  0x02, 0x00, 0x00, 0x00, 0x00, 0x00, 0x0e, 0x00, 0x16, 0x00, 0x00, 0x00,
  0x08, 0x00, 0x0c, 0x00, 0x07, 0x00, 0x10, 0x00, 0x0e, 0x00, 0x00, 0x00,
  0x00, 0x00, 0x00, 0x08, 0x24, 0x00, 0x00, 0x00, 0x18, 0x00, 0x00, 0x00,
  0x0c, 0x00, 0x00, 0x00, 0x00, 0x00, 0x06, 0x00, 0x08, 0x00, 0x07, 0x00,
  0x06, 0x00, 0x00, 0x00, 0x00, 0x00, 0x00, 0x01, 0x01, 0x00, 0x00, 0x00,
  0x07, 0x00, 0x00, 0x00, 0x03, 0x00, 0x00, 0x00, 0x00, 0x00, 0x00, 0x00,
  0x04, 0x00, 0x00, 0x00, 0x01, 0x00, 0x00, 0x00, 0x01, 0x00, 0x00, 0x00,
  0x09, 0x00, 0x00, 0x00, 0x01, 0x00, 0x00, 0x00, 0x00, 0x00, 0x00, 0x00,
  0x0a, 0x00, 0x00, 0x00, 0x34, 0x03, 0x00, 0x00, 0xc4, 0x02, 0x00, 0x00,
  0x58, 0x02, 0x00, 0x00, 0xfc, 0x01, 0x00, 0x00, 0xb8, 0x01, 0x00, 0x00,
  0x70, 0x01, 0x00, 0x00, 0x28, 0x01, 0x00, 0x00, 0xbc, 0x00, 0x00, 0x00,
  0x4c, 0x00, 0x00, 0x00, 0x04, 0x00, 0x00, 0x00, 0x08, 0xfd, 0xff, 0xff,
  0x34, 0x00, 0x00, 0x00, 0x0a, 0x00, 0x00, 0x00, 0x1c, 0x00, 0x00, 0x00,
  0x14, 0x00, 0x00, 0x00, 0x04, 0x00, 0x00, 0x00, 0x02, 0x00, 0x00, 0x00,
  0xff, 0xff, 0xff, 0xff, 0x01, 0x00, 0x00, 0x00, 0xf4, 0xfc, 0xff, 0xff,
  0x08, 0x00, 0x00, 0x00, 0x49, 0x64, 0x65, 0x6e, 0x74, 0x69, 0x74, 0x79,
  0x00, 0x00, 0x00, 0x00, 0x02, 0x00, 0x00, 0x00, 0x01, 0x00, 0x00, 0x00,
  0x01, 0x00, 0x00, 0x00, 0x4c, 0xfd, 0xff, 0xff, 0x5c, 0x00, 0x00, 0x00,
  0x09, 0x00, 0x00, 0x00, 0x1c, 0x00, 0x00, 0x00, 0x14, 0x00, 0x00, 0x00,
  0x04, 0x00, 0x00, 0x00, 0x02, 0x00, 0x00, 0x00, 0xff, 0xff, 0xff, 0xff,
  0x10, 0x00, 0x00, 0x00, 0x38, 0xfd, 0xff, 0xff, 0x32, 0x00, 0x00, 0x00,
  0x73, 0x65, 0x71, 0x75, 0x65, 0x6e, 0x74, 0x69, 0x61, 0x6c, 0x2f, 0x64,
  0x65, 0x6e, 0x73, 0x65, 0x5f, 0x31, 0x2f, 0x52, 0x65, 0x6c, 0x75, 0x3b,
  0x73, 0x65, 0x71, 0x75, 0x65, 0x6e, 0x74, 0x69, 0x61, 0x6c, 0x2f, 0x64,
  0x65, 0x6e, 0x73, 0x65, 0x5f, 0x31, 0x2f, 0x42, 0x69, 0x61, 0x73, 0x41,
  0x64, 0x64, 0x00, 0x00, 0x02, 0x00, 0x00, 0x00, 0x01, 0x00, 0x00, 0x00,
  0x10, 0x00, 0x00, 0x00, 0xb8, 0xfd, 0xff, 0xff, 0x58, 0x00, 0x00, 0x00,
  0x08, 0x00, 0x00, 0x00, 0x1c, 0x00, 0x00, 0x00, 0x14, 0x00, 0x00, 0x00,
  0x04, 0x00, 0x00, 0x00, 0x02, 0x00, 0x00, 0x00, 0xff, 0xff, 0xff, 0xff,
  0x10, 0x00, 0x00, 0x00, 0xa4, 0xfd, 0xff, 0xff, 0x2e, 0x00, 0x00, 0x00,
  0x73, 0x65, 0x71, 0x75, 0x65, 0x6e, 0x74, 0x69, 0x61, 0x6c, 0x2f, 0x64,
  0x65, 0x6e, 0x73, 0x65, 0x2f, 0x52, 0x65, 0x6c, 0x75, 0x3b, 0x73, 0x65,
  0x71, 0x75, 0x65, 0x6e, 0x74, 0x69, 0x61, 0x6c, 0x2f, 0x64, 0x65, 0x6e,
  0x73, 0x65, 0x2f, 0x42, 0x69, 0x61, 0x73, 0x41, 0x64, 0x64, 0x00, 0x00,
  0x02, 0x00, 0x00, 0x00, 0x01, 0x00, 0x00, 0x00, 0x10, 0x00, 0x00, 0x00,
  0x86, 0xfe, 0xff, 0xff, 0x34, 0x00, 0x00, 0x00, 0x07, 0x00, 0x00, 0x00,
  0x0c, 0x00, 0x00, 0x00, 0x04, 0x00, 0x00, 0x00, 0xfc, 0xfd, 0xff, 0xff,
  0x19, 0x00, 0x00, 0x00, 0x73, 0x65, 0x71, 0x75, 0x65, 0x6e, 0x74, 0x69,
  0x61, 0x6c, 0x2f, 0x64, 0x65, 0x6e, 0x73, 0x65, 0x5f, 0x32, 0x2f, 0x4d,
  0x61, 0x74, 0x4d, 0x75, 0x6c, 0x00, 0x00, 0x00, 0x02, 0x00, 0x00, 0x00,
  0x01, 0x00, 0x00, 0x00, 0x10, 0x00, 0x00, 0x00, 0xca, 0xfe, 0xff, 0xff,
  0x34, 0x00, 0x00, 0x00, 0x06, 0x00, 0x00, 0x00, 0x0c, 0x00, 0x00, 0x00,
  0x04, 0x00, 0x00, 0x00, 0x40, 0xfe, 0xff, 0xff, 0x19, 0x00, 0x00, 0x00,
  0x73, 0x65, 0x71, 0x75, 0x65, 0x6e, 0x74, 0x69, 0x61, 0x6c, 0x2f, 0x64,
  0x65, 0x6e, 0x73, 0x65, 0x5f, 0x31, 0x2f, 0x4d, 0x61, 0x74, 0x4d, 0x75,
  0x6c, 0x00, 0x00, 0x00, 0x02, 0x00, 0x00, 0x00, 0x10, 0x00, 0x00, 0x00,
  0x10, 0x00, 0x00, 0x00, 0x0e, 0xff, 0xff, 0xff, 0x30, 0x00, 0x00, 0x00,
  0x05, 0x00, 0x00, 0x00, 0x0c, 0x00, 0x00, 0x00, 0x04, 0x00, 0x00, 0x00,
  0x84, 0xfe, 0xff, 0xff, 0x17, 0x00, 0x00, 0x00, 0x73, 0x65, 0x71, 0x75,
  0x65, 0x6e, 0x74, 0x69, 0x61, 0x6c, 0x2f, 0x64, 0x65, 0x6e, 0x73, 0x65,
  0x2f, 0x4d, 0x61, 0x74, 0x4d, 0x75, 0x6c, 0x00, 0x02, 0x00, 0x00, 0x00,
  0x10, 0x00, 0x00, 0x00, 0x01, 0x00, 0x00, 0x00, 0x4e, 0xff, 0xff, 0xff,
  0x4c, 0x00, 0x00, 0x00, 0x04, 0x00, 0x00, 0x00, 0x0c, 0x00, 0x00, 0x00,
  0x04, 0x00, 0x00, 0x00, 0xc4, 0xfe, 0xff, 0xff, 0x32, 0x00, 0x00, 0x00,
  0x73, 0x65, 0x71, 0x75, 0x65, 0x6e, 0x74, 0x69, 0x61, 0x6c, 0x2f, 0x64,
  0x65, 0x6e, 0x73, 0x65, 0x5f, 0x32, 0x2f, 0x42, 0x69, 0x61, 0x73, 0x41,
  0x64, 0x64, 0x2f, 0x52, 0x65, 0x61, 0x64, 0x56, 0x61, 0x72, 0x69, 0x61,
  0x62, 0x6c, 0x65, 0x4f, 0x70, 0x2f, 0x72, 0x65, 0x73, 0x6f, 0x75, 0x72,
  0x63, 0x65, 0x00, 0x00, 0x01, 0x00, 0x00, 0x00, 0x01, 0x00, 0x00, 0x00,
  0xa6, 0xff, 0xff, 0xff, 0x4c, 0x00, 0x00, 0x00, 0x03, 0x00, 0x00, 0x00,
  0x0c, 0x00, 0x00, 0x00, 0x04, 0x00, 0x00, 0x00, 0x1c, 0xff, 0xff, 0xff,
  0x32, 0x00, 0x00, 0x00, 0x73, 0x65, 0x71, 0x75, 0x65, 0x6e, 0x74, 0x69,
  0x61, 0x6c, 0x2f, 0x64, 0x65, 0x6e, 0x73, 0x65, 0x5f, 0x31, 0x2f, 0x42,
  0x69, 0x61, 0x73, 0x41, 0x64, 0x64, 0x2f, 0x52, 0x65, 0x61, 0x64, 0x56,
  0x61, 0x72, 0x69, 0x61, 0x62, 0x6c, 0x65, 0x4f, 0x70, 0x2f, 0x72, 0x65,
  0x73, 0x6f, 0x75, 0x72, 0x63, 0x65, 0x00, 0x00, 0x01, 0x00, 0x00, 0x00,
  0x10, 0x00, 0x00, 0x00, 0x00, 0x00, 0x0e, 0x00, 0x14, 0x00, 0x04, 0x00,
  0x00, 0x00, 0x08, 0x00, 0x0c, 0x00, 0x10, 0x00, 0x0e, 0x00, 0x00, 0x00,
  0x4c, 0x00, 0x00, 0x00, 0x02, 0x00, 0x00, 0x00, 0x0c, 0x00, 0x00, 0x00,
  0x04, 0x00, 0x00, 0x00, 0x84, 0xff, 0xff, 0xff, 0x30, 0x00, 0x00, 0x00,
  0x73, 0x65, 0x71, 0x75, 0x65, 0x6e, 0x74, 0x69, 0x61, 0x6c, 0x2f, 0x64,
  0x65, 0x6e, 0x73, 0x65, 0x2f, 0x42, 0x69, 0x61, 0x73, 0x41, 0x64, 0x64,
  0x2f, 0x52, 0x65, 0x61, 0x64, 0x56, 0x61, 0x72, 0x69, 0x61, 0x62, 0x6c,
  0x65, 0x4f, 0x70, 0x2f, 0x72, 0x65, 0x73, 0x6f, 0x75, 0x72, 0x63, 0x65,
  0x00, 0x00, 0x00, 0x00, 0x01, 0x00, 0x00, 0x00, 0x10, 0x00, 0x00, 0x00,
  0x14, 0x00, 0x18, 0x00, 0x04, 0x00, 0x00, 0x00, 0x08, 0x00, 0x0c, 0x00,
  0x10, 0x00, 0x00, 0x00, 0x00, 0x00, 0x14, 0x00, 0x14, 0x00, 0x00, 0x00,
  0x38, 0x00, 0x00, 0x00, 0x01, 0x00, 0x00, 0x00, 0x20, 0x00, 0x00, 0x00,
  0x18, 0x00, 0x00, 0x00, 0x04, 0x00, 0x00, 0x00, 0x02, 0x00, 0x00, 0x00,
  0xff, 0xff, 0xff, 0xff, 0x01, 0x00, 0x00, 0x00, 0x04, 0x00, 0x04, 0x00,
  0x04, 0x00, 0x00, 0x00, 0x0b, 0x00, 0x00, 0x00, 0x64, 0x65, 0x6e, 0x73,
  0x65, 0x5f, 0x69, 0x6e, 0x70, 0x75, 0x74, 0x00, 0x02, 0x00, 0x00, 0x00,
  0x01, 0x00, 0x00, 0x00, 0x01, 0x00, 0x00, 0x00, 0x01, 0x00, 0x00, 0x00,
  0x10, 0x00, 0x00, 0x00, 0x00, 0x00, 0x0a, 0x00, 0x0c, 0x00, 0x07, 0x00,
  0x00, 0x00, 0x08, 0x00, 0x0a, 0x00, 0x00, 0x00, 0x00, 0x00, 0x00, 0x09,
  0x03, 0x00, 0x00, 0x00
};

#endif //SINE_WAVE_H